00
f8
e8
03
09
06
e7
eb
04
fd
f0
fb
10
e2
18
e4
0e
17
e8
01
12
02
ec
f1
00
de
0b
03
14
0c
e9
00
00
f0
18
fe
ec
ea
ec
00
ff
09
0b
e1
18
01
09
00
00
f7
18
df
02
e4
ec
f0
00
0b
f6
f1
e4
f7
06
fc
00
f9
f2
dd
f6
04
2a
1a
04
01
e0
02
13
e0
2c
ec
09
d4
0c
f8
0e
f7
f3
f9
00
19
0b
1b
08
f9
ff
0d
00
11
09
1f
f1
09
e3
00
09
db
09
00
03
f2
27
0b
00
ee
e3
d4
07
0c
05
17
00
11
02
05
04
04
ef
09
00
f2
16
14
07
0e
19
16
16
fb
e5
07
14
e1
f5
f6
00
0b
fe
f7
18
0a
fb
f9
00
ff
19
e6
fd
17
ea
19
00
0a
fb
1e
1c
14
21
00
e3
10
e4
f6
f3
fb
fa
12
19
fa
e7
f6
f8
f5
e5
eb
0d
1f
1f
11
e8
e4
ed
fa
00
06
e4
dd
f7
13
fb
f0
00
e6
ef
07
e6
03
1c
fc
00
10
16
f1
f6
06
e0
00
00
f5
fb
ee
f7
de
f9
00
00
02
e6
e5
19
05
01
00
e8
0b
f6
f0
07
09
fa
00
f3
0c
1a
fb
08
0a
f1
09
19
02
e6
04
dc
14
f3
18
00
fb
10
06
e2
13
e7
20
f1
0d
ef
ef
05
19
f0
f0
f7
fe
eb
19
f2
0f
ef
ec
00
1a
1d
11
0c
f6
05
00
00
15
16
fe
ee
21
2d
00
f8
21
00
05
0b
f8
02
1a
f6
ec
18
00
e1
11
ef
e1
00
da
12
17
15
04
fa
de
00
00
cd
ea
f2
19
ed
0b
00
d8
f4
e3
02
26
e5
03
00
f8
0c
e7
f1
0c
17
1a
00
14
e1
f9
ed
ed
ee
00
00
fe
15
18
12
17
18
00
00
1b
10
ec
e6
e3
ef
07
00
f4
f3
ec
ee
15
e3
00
00
00
d1
06
03
28
1a
00
00
1a
1e
0d
03
e5
ea
ef
e3
fc
0b
f5
e1
03
30
f6
0c
0c
02
e9
07
f0
f4
e2
00
1e
f8
19
e8
04
0e
00
00
e5
e6
1b
e6
17
1d
00
e9
19
ec
13
f9
1c
02
e0
00
e4
05
04
14
0f
ec
08
00
f2
ff
e5
df
ec
e8
f4
00
1d
00
27
07
05
f9
e9
15
fc
03
12
07
f5
f2
13
f7
f0
d3
fa
1c
f5
f7
e3
00
e0
ff
f6
f3
ff
fd
08
00
da
07
09
0e
0c
e0
00
f2
15
f3
01
e3
02
14
ec
ec
d5
ec
1f
0b
f1
f0
20
00
ff
04
08
12
f0
0f
14
00
02
19
f3
01
0f
fd
01
0a
e1
ef
f0
ef
0c
16
16
0a
10
0d
15
25
06
08
05
00
1a
04
18
2c
ff
d3
16
00
e8
fb
00
20
fe
0a
00
ea
f5
e3
f5
00
11
ed
ee
ef
fc
fa
ec
fc
ff
16
15
ee
f1
e9
11
21
ef
e9
1c
00
fd
08
0a
10
f9
1c
cc
13
15
fb
1d
13
0c
fc
f5
f9
fd
f4
0f
e3
00
fe
d7
00
0a
f1
05
1f
ee
02
d2
00
df
21
12
ee
fd
e0
00
f0
d8
0d
f5
ec
1a
f1
07
ed
0d
15
f9
fb
07
15
f7
e7
17
fa
19
ff
1a
00
eb
00
00
fd
fd
fd
00
fe
00
00
00
fd
fd
fd
fe
00
00
00
00
fe
fd
fd
fe
ff
00
00
ff
fd
fd
fd
00
fe
00
00
fe
fd
fd
fe
03
01
00
00
fe
fd
fd
00
01
02
00
00
00
fd
fd
ff
02
02
00
00
00
fd
fd
fe
03
03
02
00
0a
e2
01
00
f1
f0
ff
06
1b
0a
fa
1c
e1
16
0f
00
d3
da
19
ff
04
ff
14
00
f9
1a
fa
f8
12
f5
09
00
22
13
f3
1f
02
1b
00
1d
06
ec
08
0d
fe
1e
f9
05
1f
f9
07
0e
ec
e5
01
1d
0b
18
09
e1
e8
0f
f8
00
09
dc
e2
20
ef
f3
fa
de
0e
db
18
f6
0f
e9
1b
d7
03
00
04
f8
bc
e3
1e
00
f4
11
03
03
d0
fb
e4
00
0d
ee
1b
0a
16
02
00
17
1d
e2
d8
0b
32
19
0e
f7
13
07
0e
ff
0e
0b
02
00
06
0f
09
06
11
0d
1d
00
06
e5
25
03
d4
c6
0e
fe
1e
0f
01
00
03
e2
01
f2
f1
11
08
f6
18
03
0c
00
15
08
e7
eb
f9
14
27
00
e5
07
fd
ea
f4
03
00
fd
1b
f4
fb
e4
10
1d
14
24
1f
fe
22
fa
1e
1f
0b
08
fc
04
15
1f
07
0e
f5
00
e2
eb
fd
02
11
f3
fe
25
f5
12
09
d5
0b
0f
04
01
04
0b
0c
1c
27
03
00
00
ec
09
1f
10
ef
2f
11
00
c7
e5
0c
0a
ec
dd
00
00
12
0d
dd
03
f9
fb
f2
ff
00
01
06
e6
f4
ef
e6
ec
10
0f
01
ee
ec
09
07
00
ec
db
13
18
e5
f5
10
13
f2
0e
00
fa
14
0c
f2
18
27
14
04
ec
17
19
09
00
ef
ef
f9
ea
0c
f5
ee
00
1f
0a
e4
01
09
eb
00
17
e9
08
ea
ed
10
15
18
1a
19
17
e1
09
f5
11
e6
d4
e6
00
f6
0f
e9
00
1b
00
e4
f3
0b
0e
f7
02
14
f8
f5
f1
17
f9
f2
f3
04
ef
0b
0e
1f
fb
24
1d
15
00
ee
fc
09
19
00
12
e2
00
f9
20
15
0c
f3
f3
00
07
dc
10
f1
ee
02
f8
07
11
10
1f
12
07
e0
10
04
f6
00
f3
01
df
16
0c
e7
00
f8
08
f5
09
1d
29
e4
1f
f1
03
0d
1f
0f
ed
fe
f8
f4
10
0f
da
e6
19
fd
00
01
07
f0
df
f2
fc
12
00
ee
0a
fe
0d
16
07
00
e7
13
11
15
e4
02
f5
13
f8
0e
ed
ef
0e
12
07
f9
09
22
f6
16
fb
e9
fa
f0
00
10
ed
11
e7
16
30
fd
df
eb
07
09
e7
fe
fe
f4
cf
21
f3
0a
f8
0a
d8
ea
00
07
16
03
15
05
e4
f4
00
03
f6
ea
eb
13
e4
00
1c
e7
e9
14
06
1a
00
03
f1
04
f1
f1
12
ed
f0
ea
18
f6
04
1b
09
22
0a
17
00
e3
15
03
18
e7
f1
dc
24
ea
fb
f4
1a
04
fa
f3
02
1b
27
0d
22
fb
25
0b
00
fe
16
18
0e
0d
0b
df
00
d3
e0
23
f7
0e
e8
00
e4
f1
f4
0e
0c
e5
05
0b
1a
ed
f5
f3
e3
f3
e9
2d
13
e3
07
11
f3
f4
04
24
00
19
05
1c
18
00
18
09
10
0f
fa
0e
1f
10
21
fc
f7
0c
f6
e9
02
0e
05
ef
00
01
e5
09
ff
14
18
e1
00
e6
f1
de
f6
0d
1a
00
14
0d
f0
f8
f8
1a
f7
14
ea
22
eb
f4
f4
ef
eb
23
27
07
e9
16
05
ff
11
19
00
f2
fc
08
22
fe
f7
fc
1f
e5
f6
0e
f5
ea
f3
f5
fb
14
07
e5
0a
f5
15
e5
00
ee
17
01
ee
18
11
0c
00
1d
04
fa
fd
fe
ff
00
f2
fc
0b
0f
17
20
25
15
e2
fc
f8
f8
f8
14
ed
fa
05
22
f3
15
1f
e1
ec
fa
00
f0
f7
10
ee
10
d7
02
26
29
f5
f1
f7
05
0c
fe
20
07
f6
eb
d3
f4
09
fe
00
e9
1b
1c
03
ed
03
ff
00
09
fa
f4
1e
0d
dc
00
df
06
24
1a
f6
1a
27
ee
15
00
f4
09
dc
09
18
f5
00
fc
f2
e8
14
00
00
f9
00
e0
db
05
09
e1
fd
f1
30
e5
db
f2
f7
f4
0a
0e
07
1b
24
02
02
ff
22
fe
00
f3
17
0b
ef
22
18
0a
00
0b
04
12
1b
10
e0
00
17
05
00
28
f9
0d
da
0a
1e
12
fa
09
19
07
f1
fb
f8
fb
dc
fa
16
04
f0
15
00
1f
0b
15
00
21
f2
f3
02
fc
1c
13
0e
09
17
ff
0d
15
dd
e5
01
fc
24
1f
00
d1
cf
e3
10
ed
18
fe
00
f1
e5
f5
08
e0
da
00
0a
26
26
0a
f1
10
ed
01
13
03
19
1d
0b
19
1b
03
11
00
1c
fa
0e
f8
fa
00
00
f8
1f
04
0b
0a
03
f3
0c
e6
eb
28
da
0d
1b
11
f5
0e
ff
0a
e2
df
fc
f9
00
22
0b
1c
00
f0
05
f2
00
0f
ef
00
ed
1a
f6
00
1d
05
0f
eb
ff
12
d5
1a
0d
f4
21
f5
0d
17
d8
e7
00
fe
fa
f6
ed
09
df
c5
00
14
03
20
e5
f9
0d
ff
03
13
08
07
ed
18
18
0f
fe
0e
0e
0b
06
fa
f9
06
00
eb
e1
fb
09
ef
15
16
00
df
f4
fd
23
dd
09
00
00
ec
fb
fc
f4
e6
d7
ec
f6
fb
25
1e
20
ed
01
fa
19
ff
f7
00
e3
20
11
f8
00
e8
08
09
16
fd
0a
27
00
fe
fc
06
ff
e1
08
ef
00
d9
e7
15
fa
0a
07
05
00
0d
f8
ed
25
f5
2a
1d
00
1a
fa
0a
06
21
01
00
f3
09
27
1f
19
06
19
2a
13
16
ff
19
df
e5
01
16
2c
ef
e5
e8
de
ef
f4
1a
00
fc
ec
f7
04
0d
0c
0d
e8
e6
fa
13
dd
dc
ff
e8
d1
e8
0c
f5
0c
df
e8
12
00
1a
27
08
07
f1
e5
fa
00
2d
0b
f1
0a
09
14
00
17
ef
21
2b
04
05
ff
1e
02
f5
18
0f
15
16
1b
1b
0a
fb
1e
05
01
21
ea
fc
00
e7
00
03
0b
ff
1c
0e
e1
01
19
fc
ee
05
2f
02
06
f5
f6
dc
00
fb
f9
1b
00
e2
13
fd
0f
04
fd
f7
00
fd
e4
0c
1d
f2
05
00
0d
05
e3
0d
19
26
1f
eb
f2
07
0b
f5
e6
ef
18
de
f5
f7
e0
05
18
07
d8
10
00
09
f2
df
f8
f8
f0
19
1d
16
07
1b
ec
12
1e
e7
00
1b
f0
04
f8
e3
fe
1f
00
05
f0
06
0c
15
e0
08
00
e2
18
e0
08
06
04
00
00
00
e9
e6
17
df
00
00
00
19
f3
04
e8
f1
00
00
00
1b
e8
ef
07
f2
00
00
00
ed
ed
f3
e7
07
08
dc
03
1e
de
f9
f6
31
f1
ee
00
04
f2
1a
12
fc
0b
f0
00
e5
fc
0a
e1
2c
fb
1b
00
01
11
02
fe
fa
f2
00
e3
1d
07
eb
1a
ff
e3
0a
f0
f3
0b
f2
12
f5
0f
20
25
19
12
e2
0e
23
0f
2d
