fa
f0
e9
d4
20
cc
21
0c
d5
e0
00
2d
d7
1b
fb
19
1f
2b
fb
ea
0f
0c
07
04
1c
16
c2
ca
ed
e0
dc
15
e1
e0
f1
e6
ff
14
ef
2a
31
04
00
04
13
c8
f5
e9
16
0f
0e
15
15
d5
8a
22
e3
bf
f0
ff
22
d7
fd
2f
21
f0
ee
e8
d6
32
da
10
fb
ff
03
1d
d7
30
d0
e6
e1
08
0c
1c
0f
ed
d7
0a
46
d4
28
ef
f3
fb
ff
35
06
3c
12
e4
f3
05
fc
1f
2e
2d
fd
37
37
f6
17
1e
ce
eb
fb
ea
0f
13
f5
cf
20
cf
f4
e7
ef
28
e9
f3
1b
fc
2d
19
1d
e6
0a
d3
12
bc
fe
1b
29
12
30
f5
ed
f5
e3
f5
e4
04
e3
3b
ee
1d
15
3e
fe
ed
df
05
0f
e6
20
ff
02
d7
0b
d2
20
22
fd
0a
0d
e4
e4
d7
ea
2a
1f
09
01
28
1a
d1
ee
1f
1f
de
12
fa
f1
b9
29
fe
02
0d
ef
14
06
fb
df
14
fe
e5
0a
fc
cd
e9
17
ee
ef
e4
fb
f8
29
13
e7
36
d3
11
32
22
f3
e8
ea
e5
2d
1d
2c
e3
e5
ef
ed
e8
01
22
fe
df
00
ea
29
23
29
fa
2c
ef
f2
fa
11
d2
df
3a
e3
17
29
ee
17
f4
d6
e7
0b
d6
1e
db
22
29
fd
cc
eb
ec
36
e4
fd
0d
eb
1c
c4
27
47
14
16
e4
f5
da
ed
0a
da
17
f6
37
10
f1
f6
11
0b
00
1c
1a
03
d7
cf
1f
34
04
14
e3
f6
29
31
01
e3
ee
d6
30
d7
da
de
15
00
f9
